#pragma once

// Generated by ml/export_tflite.py
const unsigned int g_model_tflite_len = 4208;
const unsigned char g_model_tflite[] = {
  0x1c, 0x00, 0x00, 0x00, 0x54, 0x46, 0x4c, 0x33, 0x14, 0x00, 0x20, 0x00,
  0x1c, 0x00, 0x18, 0x00, 0x14, 0x00, 0x10, 0x00, 0x0c, 0x00, 0x00, 0x00,
  0x08, 0x00, 0x04, 0x00, 0x14, 0x00, 0x00, 0x00, 0x1c, 0x00, 0x00, 0x00,
  0x94, 0x00, 0x00, 0x00, 0xec, 0x00, 0x00, 0x00, 0xc0, 0x04, 0x00, 0x00,
  0xd0, 0x04, 0x00, 0x00, 0x04, 0x10, 0x00, 0x00, 0x03, 0x00, 0x00, 0x00,
  0x01, 0x00, 0x00, 0x00, 0x10, 0x00, 0x00, 0x00, 0x00, 0x00, 0x0a, 0x00,
  0x10, 0x00, 0x0c, 0x00, 0x08, 0x00, 0x04, 0x00, 0x0a, 0x00, 0x00, 0x00,
  0x0c, 0x00, 0x00, 0x00, 0x1c, 0x00, 0x00, 0x00, 0x3c, 0x00, 0x00, 0x00,
  0x0f, 0x00, 0x00, 0x00, 0x73, 0x65, 0x72, 0x76, 0x69, 0x6e, 0x67, 0x5f,
  0x64, 0x65, 0x66, 0x61, 0x75, 0x6c, 0x74, 0x00, 0x01, 0x00, 0x00, 0x00,
  0x04, 0x00, 0x00, 0x00, 0x94, 0xff, 0xff, 0xff, 0x0a, 0x00, 0x00, 0x00,
  0x04, 0x00, 0x00, 0x00, 0x08, 0x00, 0x00, 0x00, 0x6f, 0x75, 0x74, 0x70,
  0x75, 0x74, 0x5f, 0x30, 0x00, 0x00, 0x00, 0x00, 0x01, 0x00, 0x00, 0x00,
  0x04, 0x00, 0x00, 0x00, 0x26, 0xfb, 0xff, 0xff, 0x04, 0x00, 0x00, 0x00,
  0x08, 0x00, 0x00, 0x00, 0x66, 0x65, 0x61, 0x74, 0x75, 0x72, 0x65, 0x73,
  0x00, 0x00, 0x00, 0x00, 0x02, 0x00, 0x00, 0x00, 0x34, 0x00, 0x00, 0x00,
  0x04, 0x00, 0x00, 0x00, 0xdc, 0xff, 0xff, 0xff, 0x0d, 0x00, 0x00, 0x00,
  0x04, 0x00, 0x00, 0x00, 0x13, 0x00, 0x00, 0x00, 0x43, 0x4f, 0x4e, 0x56,
  0x45, 0x52, 0x53, 0x49, 0x4f, 0x4e, 0x5f, 0x4d, 0x45, 0x54, 0x41, 0x44,
  0x41, 0x54, 0x41, 0x00, 0x08, 0x00, 0x0c, 0x00, 0x08, 0x00, 0x04, 0x00,
  0x08, 0x00, 0x00, 0x00, 0x0c, 0x00, 0x00, 0x00, 0x04, 0x00, 0x00, 0x00,
  0x13, 0x00, 0x00, 0x00, 0x6d, 0x69, 0x6e, 0x5f, 0x72, 0x75, 0x6e, 0x74,
  0x69, 0x6d, 0x65, 0x5f, 0x76, 0x65, 0x72, 0x73, 0x69, 0x6f, 0x6e, 0x00,
  0x0e, 0x00, 0x00, 0x00, 0xd0, 0x03, 0x00, 0x00, 0xc8, 0x03, 0x00, 0x00,
  0x9c, 0x03, 0x00, 0x00, 0x54, 0x03, 0x00, 0x00, 0x24, 0x03, 0x00, 0x00,
  0x94, 0x02, 0x00, 0x00, 0x44, 0x02, 0x00, 0x00, 0xb4, 0x00, 0x00, 0x00,
  0xac, 0x00, 0x00, 0x00, 0xa4, 0x00, 0x00, 0x00, 0x9c, 0x00, 0x00, 0x00,
  0x94, 0x00, 0x00, 0x00, 0x74, 0x00, 0x00, 0x00, 0x04, 0x00, 0x00, 0x00,
  0xd6, 0xfb, 0xff, 0xff, 0x04, 0x00, 0x00, 0x00, 0x60, 0x00, 0x00, 0x00,
  0x0c, 0x00, 0x00, 0x00, 0x08, 0x00, 0x0e, 0x00, 0x08, 0x00, 0x04, 0x00,
  0x08, 0x00, 0x00, 0x00, 0x10, 0x00, 0x00, 0x00, 0x28, 0x00, 0x00, 0x00,
  0x00, 0x00, 0x06, 0x00, 0x08, 0x00, 0x04, 0x00, 0x06, 0x00, 0x00, 0x00,
  0x04, 0x00, 0x00, 0x00, 0x01, 0x00, 0x00, 0x00, 0xeb, 0x03, 0x00, 0x00,
  0x0c, 0x00, 0x18, 0x00, 0x14, 0x00, 0x10, 0x00, 0x0c, 0x00, 0x04, 0x00,
  0x0c, 0x00, 0x00, 0x00, 0xd5, 0x4b, 0xce, 0x1c, 0xc0, 0x96, 0xd2, 0xa1,
  0x02, 0x00, 0x00, 0x00, 0x02, 0x00, 0x00, 0x00, 0x04, 0x00, 0x00, 0x00,
  0x06, 0x00, 0x00, 0x00, 0x32, 0x2e, 0x32, 0x31, 0x2e, 0x30, 0x00, 0x00,
  0x42, 0xfc, 0xff, 0xff, 0x04, 0x00, 0x00, 0x00, 0x10, 0x00, 0x00, 0x00,
  0x31, 0x2e, 0x31, 0x34, 0x2e, 0x30, 0x00, 0x00, 0x00, 0x00, 0x00, 0x00,
  0x00, 0x00, 0x00, 0x00, 0x2c, 0xfc, 0xff, 0xff, 0x30, 0xfc, 0xff, 0xff,
  0x34, 0xfc, 0xff, 0xff, 0x38, 0xfc, 0xff, 0xff, 0x6e, 0xfc, 0xff, 0xff,
  0x04, 0x00, 0x00, 0x00, 0x80, 0x01, 0x00, 0x00, 0x28, 0x43, 0x11, 0x7f,
  0xe9, 0x3b, 0xd9, 0x51, 0x4d, 0x55, 0xeb, 0x14, 0x82, 0x0e, 0xbb, 0xd8,
  0x23, 0x40, 0x0b, 0xf9, 0xf3, 0xe8, 0xfe, 0xf1, 0x16, 0x17, 0x19, 0x0f,
  0xff, 0x94, 0x50, 0xe7, 0x00, 0xf7, 0xe3, 0x7f, 0x16, 0xd7, 0x43, 0x29,
  0xc9, 0xf7, 0xf7, 0x34, 0xf2, 0xd2, 0xde, 0xc0, 0x9e, 0x77, 0x9f, 0x5a,
  0x31, 0x2b, 0xec, 0xe5, 0x93, 0x08, 0x73, 0x30, 0x27, 0x30, 0xe3, 0xee,
  0xf9, 0x20, 0x98, 0xea, 0x81, 0xea, 0x36, 0x20, 0xf8, 0x5c, 0x6e, 0x50,
  0xf3, 0xd2, 0x81, 0x02, 0x17, 0x0c, 0x47, 0x83, 0x07, 0x2a, 0xbe, 0x4e,
  0xc3, 0x38, 0x03, 0x65, 0x1e, 0x0d, 0x45, 0xd7, 0x2c, 0xdc, 0x79, 0x6e,
  0x8a, 0x0f, 0xc9, 0x23, 0x81, 0xdb, 0x5b, 0x5e, 0x91, 0x02, 0x74, 0xdd,
  0x09, 0x4d, 0xfa, 0x46, 0x7e, 0x62, 0xec, 0xcc, 0x7f, 0xbb, 0x76, 0x36,
  0xd8, 0xcc, 0xc1, 0x37, 0xff, 0xd8, 0xe6, 0xc2, 0xbb, 0xe0, 0x34, 0x16,
  0x28, 0xda, 0x34, 0xec, 0x0a, 0xf5, 0x34, 0xdd, 0x7f, 0xf3, 0x46, 0x21,
  0xfc, 0xf7, 0x0f, 0x29, 0x13, 0xf3, 0xef, 0x37, 0xcb, 0x04, 0xd9, 0xda,
  0xda, 0x03, 0xf1, 0xfb, 0x20, 0xd9, 0xff, 0xe4, 0x81, 0xf0, 0xb2, 0xb4,
  0xc1, 0xd1, 0xca, 0x2b, 0x1f, 0xac, 0xd0, 0xa0, 0x22, 0xab, 0x48, 0x2c,
  0x1c, 0xde, 0xe6, 0xe4, 0xeb, 0xf7, 0xd2, 0x29, 0xec, 0x1c, 0x03, 0x0b,
  0xf2, 0xcb, 0xe3, 0x75, 0x3d, 0x38, 0xe1, 0x2c, 0xaa, 0x12, 0x30, 0x81,
  0x10, 0x22, 0xf0, 0x78, 0x1a, 0xd0, 0xc1, 0xe7, 0x0a, 0x07, 0xf3, 0xea,
  0x27, 0xf0, 0x9e, 0x03, 0x43, 0xd0, 0xd0, 0xa0, 0x07, 0x3a, 0xf5, 0x3b,
  0x19, 0x31, 0xbd, 0x81, 0xfd, 0x31, 0x46, 0x35, 0x81, 0x1d, 0xb6, 0xa8,
  0xfc, 0x92, 0xf1, 0x23, 0x4b, 0x4d, 0xf8, 0x7c, 0xb6, 0x11, 0xc5, 0xb7,
  0x1a, 0xc5, 0x96, 0x36, 0xc5, 0x0f, 0xc3, 0x2e, 0x7f, 0xc0, 0xd0, 0xce,
  0xc3, 0x27, 0xe6, 0x2b, 0xe2, 0x28, 0x0b, 0x17, 0xb6, 0xf5, 0x05, 0xc3,
  0x30, 0x1e, 0x1d, 0x2e, 0x0c, 0xb8, 0xfb, 0x27, 0xc6, 0xd9, 0x32, 0xf0,
  0xb0, 0xde, 0x13, 0x10, 0xfe, 0x81, 0xf5, 0x89, 0x6a, 0x22, 0x1b, 0xea,
  0x23, 0xe0, 0xeb, 0xeb, 0x28, 0xdc, 0xb4, 0xab, 0x08, 0xff, 0x3f, 0x22,
  0xe6, 0x8f, 0x1f, 0x2d, 0xf9, 0xeb, 0x2c, 0x7f, 0x07, 0x27, 0x33, 0x32,
  0x36, 0x87, 0x1b, 0xf4, 0xd4, 0x2c, 0xd8, 0xb5, 0x50, 0x38, 0xbb, 0x09,
  0xdb, 0x34, 0x68, 0xb2, 0x1c, 0x1f, 0x37, 0x7f, 0x3e, 0xff, 0x4a, 0x05,
  0x00, 0xcb, 0x48, 0xe8, 0x1d, 0x09, 0x47, 0xd3, 0x7b, 0x7f, 0x43, 0x06,
  0x5d, 0xf2, 0x8c, 0x4c, 0xa1, 0x05, 0x3b, 0xc8, 0xb6, 0x41, 0x0d, 0x20,
  0x4c, 0x6a, 0x16, 0xa1, 0xf9, 0x57, 0xb6, 0x02, 0xfa, 0xfd, 0xff, 0xff,
  0x04, 0x00, 0x00, 0x00, 0x40, 0x00, 0x00, 0x00, 0xe2, 0x00, 0x00, 0x00,
  0x3e, 0x01, 0x00, 0x00, 0xcb, 0x00, 0x00, 0x00, 0x0c, 0x00, 0x00, 0x00,
  0xb2, 0xff, 0xff, 0xff, 0xb8, 0x02, 0x00, 0x00, 0xcd, 0x00, 0x00, 0x00,
  0xf8, 0xff, 0xff, 0xff, 0x76, 0x00, 0x00, 0x00, 0x11, 0xfe, 0xff, 0xff,
  0xe6, 0x01, 0x00, 0x00, 0xc1, 0xff, 0xff, 0xff, 0x53, 0xff, 0xff, 0xff,
  0x78, 0x02, 0x00, 0x00, 0xc9, 0x01, 0x00, 0x00, 0x5e, 0x01, 0x00, 0x00,
  0x46, 0xfe, 0xff, 0xff, 0x04, 0x00, 0x00, 0x00, 0x80, 0x00, 0x00, 0x00,
  0x63, 0xe0, 0x3b, 0x20, 0x7a, 0xe3, 0xa0, 0x7f, 0x94, 0x1c, 0xdd, 0xaf,
  0xe8, 0xd8, 0xbe, 0x29, 0xc3, 0x6c, 0xd6, 0x95, 0x07, 0xf5, 0xeb, 0xd0,
  0xe4, 0x37, 0x1f, 0xb5, 0xcf, 0x7f, 0x66, 0xdc, 0x12, 0x45, 0x9d, 0x47,
  0x9c, 0x30, 0x6b, 0x39, 0x81, 0x23, 0xf2, 0xed, 0x79, 0xf0, 0x0c, 0x1c,
  0x70, 0xbf, 0xd8, 0xe9, 0x2e, 0x67, 0x51, 0x55, 0x7f, 0x16, 0xde, 0x4d,
  0x88, 0xc1, 0x8e, 0x63, 0x3b, 0xf5, 0xe8, 0x0c, 0x05, 0xe1, 0x49, 0xb3,
  0x7f, 0xd4, 0x2f, 0x0d, 0xee, 0x39, 0xf2, 0xe4, 0xf4, 0x0b, 0x08, 0xf2,
  0xc4, 0x81, 0xbb, 0x23, 0x5b, 0x11, 0x6c, 0xc6, 0x25, 0x04, 0xd2, 0xb7,
  0x30, 0x2b, 0xc7, 0xcb, 0xd4, 0xeb, 0xd6, 0x6a, 0x81, 0x0c, 0x27, 0x06,
  0x6e, 0xe1, 0x9a, 0xa8, 0x52, 0xf5, 0x2d, 0xe9, 0xe1, 0xd4, 0x91, 0xbd,
  0xc7, 0xa4, 0x10, 0x2d, 0xc1, 0x1d, 0x7f, 0x2f, 0xd2, 0xfe, 0xff, 0xff,
  0x04, 0x00, 0x00, 0x00, 0x20, 0x00, 0x00, 0x00, 0x39, 0x00, 0x00, 0x00,
  0x0f, 0x02, 0x00, 0x00, 0xa9, 0x01, 0x00, 0x00, 0xb0, 0xff, 0xff, 0xff,
  0x03, 0x02, 0x00, 0x00, 0x9e, 0x01, 0x00, 0x00, 0x44, 0x00, 0x00, 0x00,
  0xd8, 0x00, 0x00, 0x00, 0xfe, 0xfe, 0xff, 0xff, 0x04, 0x00, 0x00, 0x00,
  0x38, 0x00, 0x00, 0x00, 0xfc, 0x63, 0xe7, 0xb1, 0xff, 0xa6, 0x81, 0x09,
  0xd8, 0xe7, 0x31, 0x2a, 0xf0, 0x19, 0x9c, 0x7f, 0x95, 0x1a, 0x26, 0x11,
  0x81, 0xb6, 0x09, 0xda, 0x2c, 0xa3, 0x05, 0x00, 0xad, 0x3b, 0x1f, 0x81,
  0x8b, 0xae, 0xb1, 0x64, 0x48, 0x81, 0xaa, 0x9f, 0x81, 0x37, 0x9b, 0xd8,
  0x18, 0x7e, 0xb8, 0x3a, 0x6a, 0xff, 0xc0, 0x2e, 0x81, 0xd7, 0xa3, 0xd1,
  0x42, 0xff, 0xff, 0xff, 0x04, 0x00, 0x00, 0x00, 0x1c, 0x00, 0x00, 0x00,
  0x35, 0x02, 0x00, 0x00, 0xe6, 0xfd, 0xff, 0xff, 0x3a, 0x00, 0x00, 0x00,
  0x20, 0xff, 0xff, 0xff, 0xb5, 0x01, 0x00, 0x00, 0xb5, 0xff, 0xff, 0xff,
  0xf3, 0xfd, 0xff, 0xff, 0x38, 0xff, 0xff, 0xff, 0x3c, 0xff, 0xff, 0xff,
  0x0f, 0x00, 0x00, 0x00, 0x4d, 0x4c, 0x49, 0x52, 0x20, 0x43, 0x6f, 0x6e,
  0x76, 0x65, 0x72, 0x74, 0x65, 0x64, 0x2e, 0x00, 0x01, 0x00, 0x00, 0x00,
  0x14, 0x00, 0x00, 0x00, 0x00, 0x00, 0x0e, 0x00, 0x18, 0x00, 0x14, 0x00,
  0x10, 0x00, 0x0c, 0x00, 0x08, 0x00, 0x04, 0x00, 0x0e, 0x00, 0x00, 0x00,
  0x14, 0x00, 0x00, 0x00, 0x1c, 0x00, 0x00, 0x00, 0x38, 0x01, 0x00, 0x00,
  0x3c, 0x01, 0x00, 0x00, 0x40, 0x01, 0x00, 0x00, 0x04, 0x00, 0x00, 0x00,
  0x6d, 0x61, 0x69, 0x6e, 0x00, 0x00, 0x00, 0x00, 0x04, 0x00, 0x00, 0x00,
  0xe0, 0x00, 0x00, 0x00, 0x98, 0x00, 0x00, 0x00, 0x50, 0x00, 0x00, 0x00,
  0x14, 0x00, 0x00, 0x00, 0x00, 0x00, 0x0e, 0x00, 0x1a, 0x00, 0x14, 0x00,
  0x10, 0x00, 0x0c, 0x00, 0x0b, 0x00, 0x04, 0x00, 0x0e, 0x00, 0x00, 0x00,
  0x1c, 0x00, 0x00, 0x00, 0x00, 0x00, 0x00, 0x09, 0x1c, 0x00, 0x00, 0x00,
  0x20, 0x00, 0x00, 0x00, 0x01, 0x00, 0x00, 0x00, 0x00, 0x00, 0x06, 0x00,
  0x08, 0x00, 0x04, 0x00, 0x06, 0x00, 0x00, 0x00, 0x00, 0x00, 0x80, 0x3f,
  0x01, 0x00, 0x00, 0x00, 0x0a, 0x00, 0x00, 0x00, 0x01, 0x00, 0x00, 0x00,
  0x09, 0x00, 0x00, 0x00, 0xca, 0xff, 0xff, 0xff, 0x14, 0x00, 0x00, 0x00,
  0x00, 0x00, 0x00, 0x08, 0x10, 0x00, 0x00, 0x00, 0x14, 0x00, 0x00, 0x00,
  0x04, 0x00, 0x04, 0x00, 0x04, 0x00, 0x00, 0x00, 0x01, 0x00, 0x00, 0x00,
  0x09, 0x00, 0x00, 0x00, 0x03, 0x00, 0x00, 0x00, 0x08, 0x00, 0x00, 0x00,
  0x02, 0x00, 0x00, 0x00, 0x01, 0x00, 0x00, 0x00, 0x00, 0x00, 0x0e, 0x00,
  0x14, 0x00, 0x00, 0x00, 0x10, 0x00, 0x0c, 0x00, 0x0b, 0x00, 0x04, 0x00,
  0x0e, 0x00, 0x00, 0x00, 0x10, 0x00, 0x00, 0x00, 0x00, 0x00, 0x00, 0x08,
  0x10, 0x00, 0x00, 0x00, 0x14, 0x00, 0x00, 0x00, 0xba, 0xff, 0xff, 0xff,
  0x00, 0x00, 0x00, 0x01, 0x01, 0x00, 0x00, 0x00, 0x08, 0x00, 0x00, 0x00,
  0x03, 0x00, 0x00, 0x00, 0x07, 0x00, 0x00, 0x00, 0x04, 0x00, 0x00, 0x00,
  0x03, 0x00, 0x00, 0x00, 0x00, 0x00, 0x0e, 0x00, 0x16, 0x00, 0x00, 0x00,
  0x10, 0x00, 0x0c, 0x00, 0x0b, 0x00, 0x04, 0x00, 0x0e, 0x00, 0x00, 0x00,
  0x18, 0x00, 0x00, 0x00, 0x00, 0x00, 0x00, 0x08, 0x18, 0x00, 0x00, 0x00,
  0x1c, 0x00, 0x00, 0x00, 0x00, 0x00, 0x06, 0x00, 0x08, 0x00, 0x07, 0x00,
  0x06, 0x00, 0x00, 0x00, 0x00, 0x00, 0x00, 0x01, 0x01, 0x00, 0x00, 0x00,
  0x07, 0x00, 0x00, 0x00, 0x03, 0x00, 0x00, 0x00, 0x00, 0x00, 0x00, 0x00,
  0x06, 0x00, 0x00, 0x00, 0x05, 0x00, 0x00, 0x00, 0x01, 0x00, 0x00, 0x00,
  0x0a, 0x00, 0x00, 0x00, 0x01, 0x00, 0x00, 0x00, 0x00, 0x00, 0x00, 0x00,
  0x0b, 0x00, 0x00, 0x00, 0x40, 0x09, 0x00, 0x00, 0x60, 0x08, 0x00, 0x00,
  0x7c, 0x07, 0x00, 0x00, 0x80, 0x06, 0x00, 0x00, 0xac, 0x05, 0x00, 0x00,
  0x50, 0x04, 0x00, 0x00, 0x1c, 0x03, 0x00, 0x00, 0x30, 0x02, 0x00, 0x00,
  0x44, 0x01, 0x00, 0x00, 0x80, 0x00, 0x00, 0x00, 0x04, 0x00, 0x00, 0x00,
  0x02, 0xf7, 0xff, 0xff, 0x00, 0x00, 0x00, 0x01, 0x18, 0x00, 0x00, 0x00,
  0x20, 0x00, 0x00, 0x00, 0x3c, 0x00, 0x00, 0x00, 0x0b, 0x00, 0x00, 0x00,
  0x00, 0x00, 0x00, 0x09, 0x50, 0x00, 0x00, 0x00, 0x02, 0x00, 0x00, 0x00,
  0xff, 0xff, 0xff, 0xff, 0x07, 0x00, 0x00, 0x00, 0xec, 0xf6, 0xff, 0xff,
  0x08, 0x00, 0x00, 0x00, 0x10, 0x00, 0x00, 0x00, 0x01, 0x00, 0x00, 0x00,
  0x80, 0xff, 0xff, 0xff, 0xff, 0xff, 0xff, 0xff, 0x01, 0x00, 0x00, 0x00,
  0x00, 0x00, 0x80, 0x3b, 0x1b, 0x00, 0x00, 0x00, 0x53, 0x74, 0x61, 0x74,
  0x65, 0x66, 0x75, 0x6c, 0x50, 0x61, 0x72, 0x74, 0x69, 0x74, 0x69, 0x6f,
  0x6e, 0x65, 0x64, 0x43, 0x61, 0x6c, 0x6c, 0x5f, 0x31, 0x3a, 0x30, 0x00,
  0x02, 0x00, 0x00, 0x00, 0x01, 0x00, 0x00, 0x00, 0x07, 0x00, 0x00, 0x00,
  0x7a, 0xf7, 0xff, 0xff, 0x00, 0x00, 0x00, 0x01, 0x18, 0x00, 0x00, 0x00,
  0x20, 0x00, 0x00, 0x00, 0x3c, 0x00, 0x00, 0x00, 0x0a, 0x00, 0x00, 0x00,
  0x00, 0x00, 0x00, 0x09, 0x98, 0x00, 0x00, 0x00, 0x02, 0x00, 0x00, 0x00,
  0xff, 0xff, 0xff, 0xff, 0x07, 0x00, 0x00, 0x00, 0x64, 0xf7, 0xff, 0xff,
  0x08, 0x00, 0x00, 0x00, 0x10, 0x00, 0x00, 0x00, 0x01, 0x00, 0x00, 0x00,
  0x1b, 0x00, 0x00, 0x00, 0x00, 0x00, 0x00, 0x00, 0x01, 0x00, 0x00, 0x00,
  0x1e, 0x40, 0x38, 0x3e, 0x62, 0x00, 0x00, 0x00, 0x74, 0x69, 0x6e, 0x79,
  0x6d, 0x6c, 0x5f, 0x61, 0x63, 0x74, 0x69, 0x76, 0x69, 0x74, 0x79, 0x5f,
  0x63, 0x6c, 0x61, 0x73, 0x73, 0x69, 0x66, 0x69, 0x65, 0x72, 0x5f, 0x31,
  0x2f, 0x63, 0x6c, 0x61, 0x73, 0x73, 0x69, 0x66, 0x69, 0x65, 0x72, 0x5f,
  0x31, 0x2f, 0x4d, 0x61, 0x74, 0x4d, 0x75, 0x6c, 0x3b, 0x74, 0x69, 0x6e,
  0x79, 0x6d, 0x6c, 0x5f, 0x61, 0x63, 0x74, 0x69, 0x76, 0x69, 0x74, 0x79,
  0x5f, 0x63, 0x6c, 0x61, 0x73, 0x73, 0x69, 0x66, 0x69, 0x65, 0x72, 0x5f,
  0x31, 0x2f, 0x63, 0x6c, 0x61, 0x73, 0x73, 0x69, 0x66, 0x69, 0x65, 0x72,
  0x5f, 0x31, 0x2f, 0x42, 0x69, 0x61, 0x73, 0x41, 0x64, 0x64, 0x00, 0x00,
  0x02, 0x00, 0x00, 0x00, 0x01, 0x00, 0x00, 0x00, 0x07, 0x00, 0x00, 0x00,
  0x3a, 0xf8, 0xff, 0xff, 0x00, 0x00, 0x00, 0x01, 0x18, 0x00, 0x00, 0x00,
  0x20, 0x00, 0x00, 0x00, 0x3c, 0x00, 0x00, 0x00, 0x09, 0x00, 0x00, 0x00,
  0x00, 0x00, 0x00, 0x09, 0xc0, 0x00, 0x00, 0x00, 0x02, 0x00, 0x00, 0x00,
  0xff, 0xff, 0xff, 0xff, 0x08, 0x00, 0x00, 0x00, 0x24, 0xf8, 0xff, 0xff,
  0x08, 0x00, 0x00, 0x00, 0x10, 0x00, 0x00, 0x00, 0x01, 0x00, 0x00, 0x00,
  0x80, 0xff, 0xff, 0xff, 0xff, 0xff, 0xff, 0xff, 0x01, 0x00, 0x00, 0x00,
  0x90, 0x7f, 0xae, 0x3d, 0x88, 0x00, 0x00, 0x00, 0x74, 0x69, 0x6e, 0x79,
  0x6d, 0x6c, 0x5f, 0x61, 0x63, 0x74, 0x69, 0x76, 0x69, 0x74, 0x79, 0x5f,
  0x63, 0x6c, 0x61, 0x73, 0x73, 0x69, 0x66, 0x69, 0x65, 0x72, 0x5f, 0x31,
  0x2f, 0x64, 0x65, 0x6e, 0x73, 0x65, 0x5f, 0x32, 0x5f, 0x31, 0x2f, 0x4d,
  0x61, 0x74, 0x4d, 0x75, 0x6c, 0x3b, 0x74, 0x69, 0x6e, 0x79, 0x6d, 0x6c,
  0x5f, 0x61, 0x63, 0x74, 0x69, 0x76, 0x69, 0x74, 0x79, 0x5f, 0x63, 0x6c,
  0x61, 0x73, 0x73, 0x69, 0x66, 0x69, 0x65, 0x72, 0x5f, 0x31, 0x2f, 0x64,
  0x65, 0x6e, 0x73, 0x65, 0x5f, 0x32, 0x5f, 0x31, 0x2f, 0x52, 0x65, 0x6c,
  0x75, 0x3b, 0x74, 0x69, 0x6e, 0x79, 0x6d, 0x6c, 0x5f, 0x61, 0x63, 0x74,
  0x69, 0x76, 0x69, 0x74, 0x79, 0x5f, 0x63, 0x6c, 0x61, 0x73, 0x73, 0x69,
  0x66, 0x69, 0x65, 0x72, 0x5f, 0x31, 0x2f, 0x64, 0x65, 0x6e, 0x73, 0x65,
  0x5f, 0x32, 0x5f, 0x31, 0x2f, 0x42, 0x69, 0x61, 0x73, 0x41, 0x64, 0x64,
  0x00, 0x00, 0x00, 0x00, 0x02, 0x00, 0x00, 0x00, 0x01, 0x00, 0x00, 0x00,
  0x08, 0x00, 0x00, 0x00, 0x22, 0xf9, 0xff, 0xff, 0x00, 0x00, 0x00, 0x01,
  0x18, 0x00, 0x00, 0x00, 0x20, 0x00, 0x00, 0x00, 0x3c, 0x00, 0x00, 0x00,
  0x08, 0x00, 0x00, 0x00, 0x00, 0x00, 0x00, 0x09, 0xc0, 0x00, 0x00, 0x00,
  0x02, 0x00, 0x00, 0x00, 0xff, 0xff, 0xff, 0xff, 0x10, 0x00, 0x00, 0x00,
  0x0c, 0xf9, 0xff, 0xff, 0x08, 0x00, 0x00, 0x00, 0x10, 0x00, 0x00, 0x00,
  0x01, 0x00, 0x00, 0x00, 0x80, 0xff, 0xff, 0xff, 0xff, 0xff, 0xff, 0xff,
  0x01, 0x00, 0x00, 0x00, 0x7d, 0xe7, 0xb7, 0x3d, 0x88, 0x00, 0x00, 0x00,
  0x74, 0x69, 0x6e, 0x79, 0x6d, 0x6c, 0x5f, 0x61, 0x63, 0x74, 0x69, 0x76,
  0x69, 0x74, 0x79, 0x5f, 0x63, 0x6c, 0x61, 0x73, 0x73, 0x69, 0x66, 0x69,
  0x65, 0x72, 0x5f, 0x31, 0x2f, 0x64, 0x65, 0x6e, 0x73, 0x65, 0x5f, 0x31,
  0x5f, 0x31, 0x2f, 0x4d, 0x61, 0x74, 0x4d, 0x75, 0x6c, 0x3b, 0x74, 0x69,
  0x6e, 0x79, 0x6d, 0x6c, 0x5f, 0x61, 0x63, 0x74, 0x69, 0x76, 0x69, 0x74,
  0x79, 0x5f, 0x63, 0x6c, 0x61, 0x73, 0x73, 0x69, 0x66, 0x69, 0x65, 0x72,
  0x5f, 0x31, 0x2f, 0x64, 0x65, 0x6e, 0x73, 0x65, 0x5f, 0x31, 0x5f, 0x31,
  0x2f, 0x52, 0x65, 0x6c, 0x75, 0x3b, 0x74, 0x69, 0x6e, 0x79, 0x6d, 0x6c,
  0x5f, 0x61, 0x63, 0x74, 0x69, 0x76, 0x69, 0x74, 0x79, 0x5f, 0x63, 0x6c,
  0x61, 0x73, 0x73, 0x69, 0x66, 0x69, 0x65, 0x72, 0x5f, 0x31, 0x2f, 0x64,
  0x65, 0x6e, 0x73, 0x65, 0x5f, 0x31, 0x5f, 0x31, 0x2f, 0x42, 0x69, 0x61,
  0x73, 0x41, 0x64, 0x64, 0x00, 0x00, 0x00, 0x00, 0x02, 0x00, 0x00, 0x00,
  0x01, 0x00, 0x00, 0x00, 0x10, 0x00, 0x00, 0x00, 0xe6, 0xfa, 0xff, 0xff,
  0x00, 0x00, 0x00, 0x01, 0x14, 0x00, 0x00, 0x00, 0xe4, 0x00, 0x00, 0x00,
  0x07, 0x00, 0x00, 0x00, 0x00, 0x00, 0x00, 0x09, 0x0c, 0x01, 0x00, 0x00,
  0xe4, 0xf9, 0xff, 0xff, 0x08, 0x00, 0x00, 0x00, 0x88, 0x00, 0x00, 0x00,
  0x10, 0x00, 0x00, 0x00, 0x00, 0x00, 0x00, 0x00, 0x00, 0x00, 0x00, 0x00,
  0x00, 0x00, 0x00, 0x00, 0x00, 0x00, 0x00, 0x00, 0x00, 0x00, 0x00, 0x00,
  0x00, 0x00, 0x00, 0x00, 0x00, 0x00, 0x00, 0x00, 0x00, 0x00, 0x00, 0x00,
  0x00, 0x00, 0x00, 0x00, 0x00, 0x00, 0x00, 0x00, 0x00, 0x00, 0x00, 0x00,
  0x00, 0x00, 0x00, 0x00, 0x00, 0x00, 0x00, 0x00, 0x00, 0x00, 0x00, 0x00,
  0x00, 0x00, 0x00, 0x00, 0x00, 0x00, 0x00, 0x00, 0x00, 0x00, 0x00, 0x00,
  0x00, 0x00, 0x00, 0x00, 0x00, 0x00, 0x00, 0x00, 0x00, 0x00, 0x00, 0x00,
  0x00, 0x00, 0x00, 0x00, 0x00, 0x00, 0x00, 0x00, 0x00, 0x00, 0x00, 0x00,
  0x00, 0x00, 0x00, 0x00, 0x00, 0x00, 0x00, 0x00, 0x00, 0x00, 0x00, 0x00,
  0x00, 0x00, 0x00, 0x00, 0x00, 0x00, 0x00, 0x00, 0x00, 0x00, 0x00, 0x00,
  0x00, 0x00, 0x00, 0x00, 0x00, 0x00, 0x00, 0x00, 0x00, 0x00, 0x00, 0x00,
  0x10, 0x00, 0x00, 0x00, 0x5f, 0x63, 0x97, 0x3b, 0x31, 0xad, 0xc7, 0x3b,
  0xf7, 0x28, 0x79, 0x3b, 0xc2, 0x36, 0x67, 0x3b, 0xbc, 0x29, 0x45, 0x3b,
  0x6d, 0xc3, 0xcf, 0x3b, 0x92, 0x39, 0xed, 0x3b, 0x8b, 0x5e, 0xbc, 0x3b,
  0xe7, 0x72, 0xac, 0x3b, 0x2b, 0xd6, 0x74, 0x3b, 0x22, 0x95, 0x93, 0x3b,
  0x5a, 0x9b, 0xa8, 0x3b, 0xcd, 0xe4, 0xa9, 0x3b, 0x7c, 0xe9, 0xb1, 0x3b,
  0x30, 0x3a, 0x90, 0x3b, 0xd1, 0x69, 0x80, 0x3b, 0x2d, 0x00, 0x00, 0x00,
  0x74, 0x69, 0x6e, 0x79, 0x6d, 0x6c, 0x5f, 0x61, 0x63, 0x74, 0x69, 0x76,
  0x69, 0x74, 0x79, 0x5f, 0x63, 0x6c, 0x61, 0x73, 0x73, 0x69, 0x66, 0x69,
  0x65, 0x72, 0x5f, 0x31, 0x2f, 0x64, 0x65, 0x6e, 0x73, 0x65, 0x5f, 0x31,
  0x5f, 0x31, 0x2f, 0x4d, 0x61, 0x74, 0x4d, 0x75, 0x6c, 0x00, 0x00, 0x00,
  0x02, 0x00, 0x00, 0x00, 0x10, 0x00, 0x00, 0x00, 0x18, 0x00, 0x00, 0x00,
  0x16, 0xfc, 0xff, 0xff, 0x00, 0x00, 0x00, 0x01, 0x14, 0x00, 0x00, 0x00,
  0xe4, 0x00, 0x00, 0x00, 0x06, 0x00, 0x00, 0x00, 0x00, 0x00, 0x00, 0x02,
  0x38, 0x01, 0x00, 0x00, 0x14, 0xfb, 0xff, 0xff, 0x08, 0x00, 0x00, 0x00,
  0x88, 0x00, 0x00, 0x00, 0x10, 0x00, 0x00, 0x00, 0x00, 0x00, 0x00, 0x00,
  0x00, 0x00, 0x00, 0x00, 0x00, 0x00, 0x00, 0x00, 0x00, 0x00, 0x00, 0x00,
  0x00, 0x00, 0x00, 0x00, 0x00, 0x00, 0x00, 0x00, 0x00, 0x00, 0x00, 0x00,
  0x00, 0x00, 0x00, 0x00, 0x00, 0x00, 0x00, 0x00, 0x00, 0x00, 0x00, 0x00,
  0x00, 0x00, 0x00, 0x00, 0x00, 0x00, 0x00, 0x00, 0x00, 0x00, 0x00, 0x00,
  0x00, 0x00, 0x00, 0x00, 0x00, 0x00, 0x00, 0x00, 0x00, 0x00, 0x00, 0x00,
  0x00, 0x00, 0x00, 0x00, 0x00, 0x00, 0x00, 0x00, 0x00, 0x00, 0x00, 0x00,
  0x00, 0x00, 0x00, 0x00, 0x00, 0x00, 0x00, 0x00, 0x00, 0x00, 0x00, 0x00,
  0x00, 0x00, 0x00, 0x00, 0x00, 0x00, 0x00, 0x00, 0x00, 0x00, 0x00, 0x00,
  0x00, 0x00, 0x00, 0x00, 0x00, 0x00, 0x00, 0x00, 0x00, 0x00, 0x00, 0x00,
  0x00, 0x00, 0x00, 0x00, 0x00, 0x00, 0x00, 0x00, 0x00, 0x00, 0x00, 0x00,
  0x00, 0x00, 0x00, 0x00, 0x10, 0x00, 0x00, 0x00, 0x17, 0xa9, 0xef, 0x39,
  0x75, 0x0d, 0x1e, 0x3a, 0x8c, 0x38, 0xc5, 0x39, 0x09, 0x04, 0xb7, 0x39,
  0x22, 0x10, 0x9c, 0x39, 0x23, 0x74, 0x24, 0x3a, 0x12, 0xc6, 0x3b, 0x3a,
  0x38, 0x1a, 0x15, 0x3a, 0x2d, 0x80, 0x08, 0x3a, 0x78, 0xcc, 0xc1, 0x39,
  0xca, 0xa2, 0xe9, 0x39, 0xa7, 0x75, 0x05, 0x3a, 0x6d, 0x7a, 0x06, 0x3a,
  0x36, 0xd3, 0x0c, 0x3a, 0x01, 0x53, 0xe4, 0x39, 0x15, 0x4a, 0xcb, 0x39,
  0x5a, 0x00, 0x00, 0x00, 0x74, 0x69, 0x6e, 0x79, 0x6d, 0x6c, 0x5f, 0x61,
  0x63, 0x74, 0x69, 0x76, 0x69, 0x74, 0x79, 0x5f, 0x63, 0x6c, 0x61, 0x73,
  0x73, 0x69, 0x66, 0x69, 0x65, 0x72, 0x5f, 0x31, 0x2f, 0x64, 0x65, 0x6e,
  0x73, 0x65, 0x5f, 0x31, 0x5f, 0x31, 0x2f, 0x52, 0x65, 0x6c, 0x75, 0x3b,
  0x74, 0x69, 0x6e, 0x79, 0x6d, 0x6c, 0x5f, 0x61, 0x63, 0x74, 0x69, 0x76,
  0x69, 0x74, 0x79, 0x5f, 0x63, 0x6c, 0x61, 0x73, 0x73, 0x69, 0x66, 0x69,
  0x65, 0x72, 0x5f, 0x31, 0x2f, 0x64, 0x65, 0x6e, 0x73, 0x65, 0x5f, 0x31,
  0x5f, 0x31, 0x2f, 0x42, 0x69, 0x61, 0x73, 0x41, 0x64, 0x64, 0x00, 0x00,
  0x01, 0x00, 0x00, 0x00, 0x10, 0x00, 0x00, 0x00, 0x6e, 0xfd, 0xff, 0xff,
  0x00, 0x00, 0x00, 0x01, 0x14, 0x00, 0x00, 0x00, 0x84, 0x00, 0x00, 0x00,
  0x05, 0x00, 0x00, 0x00, 0x00, 0x00, 0x00, 0x09, 0xac, 0x00, 0x00, 0x00,
  0x6c, 0xfc, 0xff, 0xff, 0x08, 0x00, 0x00, 0x00, 0x48, 0x00, 0x00, 0x00,
  0x08, 0x00, 0x00, 0x00, 0x00, 0x00, 0x00, 0x00, 0x00, 0x00, 0x00, 0x00,
  0x00, 0x00, 0x00, 0x00, 0x00, 0x00, 0x00, 0x00, 0x00, 0x00, 0x00, 0x00,
  0x00, 0x00, 0x00, 0x00, 0x00, 0x00, 0x00, 0x00, 0x00, 0x00, 0x00, 0x00,
  0x00, 0x00, 0x00, 0x00, 0x00, 0x00, 0x00, 0x00, 0x00, 0x00, 0x00, 0x00,
  0x00, 0x00, 0x00, 0x00, 0x00, 0x00, 0x00, 0x00, 0x00, 0x00, 0x00, 0x00,
  0x00, 0x00, 0x00, 0x00, 0x00, 0x00, 0x00, 0x00, 0x08, 0x00, 0x00, 0x00,
  0x9e, 0x99, 0x8e, 0x3b, 0xab, 0x93, 0xc5, 0x3b, 0x9e, 0x1f, 0x9a, 0x3b,
  0x95, 0x11, 0xa6, 0x3b, 0x84, 0xbb, 0x08, 0x3c, 0x32, 0x70, 0xda, 0x3b,
  0xae, 0xad, 0xcb, 0x3b, 0x80, 0xeb, 0xad, 0x3b, 0x2d, 0x00, 0x00, 0x00,
  0x74, 0x69, 0x6e, 0x79, 0x6d, 0x6c, 0x5f, 0x61, 0x63, 0x74, 0x69, 0x76,
  0x69, 0x74, 0x79, 0x5f, 0x63, 0x6c, 0x61, 0x73, 0x73, 0x69, 0x66, 0x69,
  0x65, 0x72, 0x5f, 0x31, 0x2f, 0x64, 0x65, 0x6e, 0x73, 0x65, 0x5f, 0x32,
  0x5f, 0x31, 0x2f, 0x4d, 0x61, 0x74, 0x4d, 0x75, 0x6c, 0x00, 0x00, 0x00,
  0x02, 0x00, 0x00, 0x00, 0x08, 0x00, 0x00, 0x00, 0x10, 0x00, 0x00, 0x00,
  0x3e, 0xfe, 0xff, 0xff, 0x00, 0x00, 0x00, 0x01, 0x14, 0x00, 0x00, 0x00,
  0x84, 0x00, 0x00, 0x00, 0x04, 0x00, 0x00, 0x00, 0x00, 0x00, 0x00, 0x02,
  0xd8, 0x00, 0x00, 0x00, 0x3c, 0xfd, 0xff, 0xff, 0x08, 0x00, 0x00, 0x00,
  0x48, 0x00, 0x00, 0x00, 0x08, 0x00, 0x00, 0x00, 0x00, 0x00, 0x00, 0x00,
  0x00, 0x00, 0x00, 0x00, 0x00, 0x00, 0x00, 0x00, 0x00, 0x00, 0x00, 0x00,
  0x00, 0x00, 0x00, 0x00, 0x00, 0x00, 0x00, 0x00, 0x00, 0x00, 0x00, 0x00,
  0x00, 0x00, 0x00, 0x00, 0x00, 0x00, 0x00, 0x00, 0x00, 0x00, 0x00, 0x00,
  0x00, 0x00, 0x00, 0x00, 0x00, 0x00, 0x00, 0x00, 0x00, 0x00, 0x00, 0x00,
  0x00, 0x00, 0x00, 0x00, 0x00, 0x00, 0x00, 0x00, 0x00, 0x00, 0x00, 0x00,
  0x08, 0x00, 0x00, 0x00, 0x84, 0xe1, 0xcc, 0x39, 0x38, 0xef, 0x0d, 0x3a,
  0xef, 0x6f, 0xdd, 0x39, 0x79, 0x99, 0xee, 0x39, 0x5f, 0x73, 0x44, 0x3a,
  0xba, 0xeb, 0x1c, 0x3a, 0x55, 0x51, 0x12, 0x3a, 0x3a, 0xe1, 0xf9, 0x39,
  0x5a, 0x00, 0x00, 0x00, 0x74, 0x69, 0x6e, 0x79, 0x6d, 0x6c, 0x5f, 0x61,
  0x63, 0x74, 0x69, 0x76, 0x69, 0x74, 0x79, 0x5f, 0x63, 0x6c, 0x61, 0x73,
  0x73, 0x69, 0x66, 0x69, 0x65, 0x72, 0x5f, 0x31, 0x2f, 0x64, 0x65, 0x6e,
  0x73, 0x65, 0x5f, 0x32, 0x5f, 0x31, 0x2f, 0x52, 0x65, 0x6c, 0x75, 0x3b,
  0x74, 0x69, 0x6e, 0x79, 0x6d, 0x6c, 0x5f, 0x61, 0x63, 0x74, 0x69, 0x76,
  0x69, 0x74, 0x79, 0x5f, 0x63, 0x6c, 0x61, 0x73, 0x73, 0x69, 0x66, 0x69,
  0x65, 0x72, 0x5f, 0x31, 0x2f, 0x64, 0x65, 0x6e, 0x73, 0x65, 0x5f, 0x32,
  0x5f, 0x31, 0x2f, 0x42, 0x69, 0x61, 0x73, 0x41, 0x64, 0x64, 0x00, 0x00,
  0x01, 0x00, 0x00, 0x00, 0x08, 0x00, 0x00, 0x00, 0x36, 0xff, 0xff, 0xff,
  0x00, 0x00, 0x00, 0x01, 0x14, 0x00, 0x00, 0x00, 0x78, 0x00, 0x00, 0x00,
  0x03, 0x00, 0x00, 0x00, 0x00, 0x00, 0x00, 0x09, 0xa4, 0x00, 0x00, 0x00,
  0x34, 0xfe, 0xff, 0xff, 0x08, 0x00, 0x00, 0x00, 0x40, 0x00, 0x00, 0x00,
  0x07, 0x00, 0x00, 0x00, 0x00, 0x00, 0x00, 0x00, 0x00, 0x00, 0x00, 0x00,
  0x00, 0x00, 0x00, 0x00, 0x00, 0x00, 0x00, 0x00, 0x00, 0x00, 0x00, 0x00,
  0x00, 0x00, 0x00, 0x00, 0x00, 0x00, 0x00, 0x00, 0x00, 0x00, 0x00, 0x00,
  0x00, 0x00, 0x00, 0x00, 0x00, 0x00, 0x00, 0x00, 0x00, 0x00, 0x00, 0x00,
  0x00, 0x00, 0x00, 0x00, 0x00, 0x00, 0x00, 0x00, 0x00, 0x00, 0x00, 0x00,
  0x07, 0x00, 0x00, 0x00, 0x07, 0x34, 0x29, 0x3c, 0xcc, 0xe8, 0xd7, 0x3b,
  0xac, 0xca, 0x11, 0x3c, 0x6b, 0x43, 0x1b, 0x3c, 0xe5, 0xa0, 0xef, 0x3b,
  0x64, 0x90, 0x14, 0x3c, 0x48, 0x80, 0x03, 0x3c, 0x30, 0x00, 0x00, 0x00,
  0x74, 0x69, 0x6e, 0x79, 0x6d, 0x6c, 0x5f, 0x61, 0x63, 0x74, 0x69, 0x76,
  0x69, 0x74, 0x79, 0x5f, 0x63, 0x6c, 0x61, 0x73, 0x73, 0x69, 0x66, 0x69,
  0x65, 0x72, 0x5f, 0x31, 0x2f, 0x63, 0x6c, 0x61, 0x73, 0x73, 0x69, 0x66,
  0x69, 0x65, 0x72, 0x5f, 0x31, 0x2f, 0x4d, 0x61, 0x74, 0x4d, 0x75, 0x6c,
  0x00, 0x00, 0x00, 0x00, 0x02, 0x00, 0x00, 0x00, 0x07, 0x00, 0x00, 0x00,
  0x08, 0x00, 0x00, 0x00, 0x00, 0x00, 0x16, 0x00, 0x1c, 0x00, 0x18, 0x00,
  0x17, 0x00, 0x10, 0x00, 0x0c, 0x00, 0x08, 0x00, 0x00, 0x00, 0x00, 0x00,
  0x00, 0x00, 0x07, 0x00, 0x16, 0x00, 0x00, 0x00, 0x00, 0x00, 0x00, 0x01,
  0x14, 0x00, 0x00, 0x00, 0x78, 0x00, 0x00, 0x00, 0x02, 0x00, 0x00, 0x00,
  0x00, 0x00, 0x00, 0x02, 0xa4, 0x00, 0x00, 0x00, 0x14, 0xff, 0xff, 0xff,
  0x08, 0x00, 0x00, 0x00, 0x40, 0x00, 0x00, 0x00, 0x07, 0x00, 0x00, 0x00,
  0x00, 0x00, 0x00, 0x00, 0x00, 0x00, 0x00, 0x00, 0x00, 0x00, 0x00, 0x00,
  0x00, 0x00, 0x00, 0x00, 0x00, 0x00, 0x00, 0x00, 0x00, 0x00, 0x00, 0x00,
  0x00, 0x00, 0x00, 0x00, 0x00, 0x00, 0x00, 0x00, 0x00, 0x00, 0x00, 0x00,
  0x00, 0x00, 0x00, 0x00, 0x00, 0x00, 0x00, 0x00, 0x00, 0x00, 0x00, 0x00,
  0x00, 0x00, 0x00, 0x00, 0x00, 0x00, 0x00, 0x00, 0x07, 0x00, 0x00, 0x00,
  0x59, 0xab, 0x66, 0x3a, 0xd1, 0x2b, 0x13, 0x3a, 0xcd, 0xc0, 0x46, 0x3a,
  0x61, 0xaa, 0x53, 0x3a, 0xc3, 0x56, 0x23, 0x3a, 0x56, 0x88, 0x4a, 0x3a,
  0x6f, 0x45, 0x33, 0x3a, 0x31, 0x00, 0x00, 0x00, 0x74, 0x69, 0x6e, 0x79,
  0x6d, 0x6c, 0x5f, 0x61, 0x63, 0x74, 0x69, 0x76, 0x69, 0x74, 0x79, 0x5f,
  0x63, 0x6c, 0x61, 0x73, 0x73, 0x69, 0x66, 0x69, 0x65, 0x72, 0x5f, 0x31,
  0x2f, 0x63, 0x6c, 0x61, 0x73, 0x73, 0x69, 0x66, 0x69, 0x65, 0x72, 0x5f,
  0x31, 0x2f, 0x42, 0x69, 0x61, 0x73, 0x41, 0x64, 0x64, 0x00, 0x00, 0x00,
  0x01, 0x00, 0x00, 0x00, 0x07, 0x00, 0x00, 0x00, 0x00, 0x00, 0x16, 0x00,
  0x20, 0x00, 0x1c, 0x00, 0x1b, 0x00, 0x14, 0x00, 0x10, 0x00, 0x0c, 0x00,
  0x00, 0x00, 0x00, 0x00, 0x08, 0x00, 0x07, 0x00, 0x16, 0x00, 0x00, 0x00,
  0x00, 0x00, 0x00, 0x01, 0x18, 0x00, 0x00, 0x00, 0x2c, 0x00, 0x00, 0x00,
  0x4c, 0x00, 0x00, 0x00, 0x01, 0x00, 0x00, 0x00, 0x00, 0x00, 0x00, 0x09,
  0x60, 0x00, 0x00, 0x00, 0x02, 0x00, 0x00, 0x00, 0xff, 0xff, 0xff, 0xff,
  0x18, 0x00, 0x00, 0x00, 0x0c, 0x00, 0x0c, 0x00, 0x00, 0x00, 0x00, 0x00,
  0x08, 0x00, 0x04, 0x00, 0x0c, 0x00, 0x00, 0x00, 0x08, 0x00, 0x00, 0x00,
  0x14, 0x00, 0x00, 0x00, 0x01, 0x00, 0x00, 0x00, 0x01, 0x00, 0x00, 0x00,
  0x00, 0x00, 0x00, 0x00, 0x00, 0x00, 0x00, 0x00, 0x01, 0x00, 0x00, 0x00,
  0x91, 0xa2, 0xca, 0x3d, 0x1a, 0x00, 0x00, 0x00, 0x73, 0x65, 0x72, 0x76,
  0x69, 0x6e, 0x67, 0x5f, 0x64, 0x65, 0x66, 0x61, 0x75, 0x6c, 0x74, 0x5f,
  0x66, 0x65, 0x61, 0x74, 0x75, 0x72, 0x65, 0x73, 0x3a, 0x30, 0x00, 0x00,
  0x02, 0x00, 0x00, 0x00, 0x01, 0x00, 0x00, 0x00, 0x18, 0x00, 0x00, 0x00,
  0x02, 0x00, 0x00, 0x00, 0x24, 0x00, 0x00, 0x00, 0x04, 0x00, 0x00, 0x00,
  0xf0, 0xff, 0xff, 0xff, 0x19, 0x00, 0x00, 0x00, 0x02, 0x00, 0x00, 0x00,
  0x00, 0x00, 0x00, 0x19, 0x0c, 0x00, 0x10, 0x00, 0x0f, 0x00, 0x00, 0x00,
  0x08, 0x00, 0x04, 0x00, 0x0c, 0x00, 0x00, 0x00, 0x09, 0x00, 0x00, 0x00,
  0x04, 0x00, 0x00, 0x00, 0x00, 0x00, 0x00, 0x09,
};
